TRT-8601-EntropyCalibration2
input: 3c897af6
(Unnamed Layer* 0) [Constant]_output: 3c6da4bb
onnx::Conv_946: 3c6da4bb
(Unnamed Layer* 2) [Constant]_output: 3a919e74
onnx::Conv_945: 3a919e74
/conv1/conv1/Conv_output_0: 3ebaadee
/conv1/relu/Relu_output_0: 3ebaadee
/maxpool/MaxPool_output_0: 3ebaadee
/layer1/layer1.0/conv1/Conv_output_0: 3e8fbe66
/layer1/layer1.0/relu/Relu_output_0: 3e065647
/layer1/layer1.0/conv2/Conv_output_0: 3e2660d7
/layer1/layer1.0/relu_1/Relu_output_0: 3e268f50
/layer1/layer1.0/conv3/Conv_output_0: 3e1bec3c
/layer1/layer1.0/downsample/downsample.0/Conv_output_0: 3e710efe
/layer1/layer1.0/Add_output_0: 3e7e7781
/layer1/layer1.0/relu_2/Relu_output_0: 3e0410db
/layer1/layer1.1/conv1/Conv_output_0: 3e54bb79
/layer1/layer1.1/relu/Relu_output_0: 3e1c188c
/layer1/layer1.1/conv2/Conv_output_0: 3e491f61
/layer1/layer1.1/relu_1/Relu_output_0: 3e491f61
/layer1/layer1.1/conv3/Conv_output_0: 3e1e8876
/layer1/layer1.1/Add_output_0: 3e6d912e
/layer1/layer1.1/relu_2/Relu_output_0: 3e020cc4
/layer1/layer1.2/conv1/Conv_output_0: 3e444683
/layer1/layer1.2/relu/Relu_output_0: 3df2d82c
/layer1/layer1.2/conv2/Conv_output_0: 3e2df39e
/layer1/layer1.2/relu_1/Relu_output_0: 3e0305d0
/layer1/layer1.2/conv3/Conv_output_0: 3f0013d0
/layer1/layer1.2/Add_output_0: 3f0013d0
/layer1/layer1.2/relu_2/Relu_output_0: 3f040890
/layer2/layer2.0/conv1/Conv_output_0: 3e8533ff
/layer2/layer2.0/relu/Relu_output_0: 3e6de4ff
/layer2/layer2.0/conv2/Conv_output_0: 3e4dc9d9
/layer2/layer2.0/relu_1/Relu_output_0: 3e83c00c
/layer2/layer2.0/conv3/Conv_output_0: 3e89307f
/layer2/layer2.0/downsample/downsample.0/Conv_output_0: 3defb91c
/layer2/layer2.0/Add_output_0: 3e978929
/layer2/layer2.0/relu_2/Relu_output_0: 3e9066f4
/layer2/layer2.1/conv1/Conv_output_0: 3e64e205
/layer2/layer2.1/relu/Relu_output_0: 3e52f696
/layer2/layer2.1/conv2/Conv_output_0: 3ea6822c
/layer2/layer2.1/relu_1/Relu_output_0: 3e4ef4f8
/layer2/layer2.1/conv3/Conv_output_0: 3e892224
/layer2/layer2.1/Add_output_0: 3ed9df76
/layer2/layer2.1/relu_2/Relu_output_0: 3ed1c606
/layer2/layer2.2/conv1/Conv_output_0: 3e9cdd85
/layer2/layer2.2/relu/Relu_output_0: 3e279502
/layer2/layer2.2/conv2/Conv_output_0: 3eb5f634
/layer2/layer2.2/relu_1/Relu_output_0: 3e94e0b6
/layer2/layer2.2/conv3/Conv_output_0: 3e825bca
/layer2/layer2.2/Add_output_0: 3ee6f729
/layer2/layer2.2/relu_2/Relu_output_0: 3ee6f729
/layer2/layer2.3/conv1/Conv_output_0: 3ea7e24e
/layer2/layer2.3/relu/Relu_output_0: 3e37fe05
/layer2/layer2.3/conv2/Conv_output_0: 3e78fe61
/layer2/layer2.3/relu_1/Relu_output_0: 3e686dcc
/layer2/layer2.3/conv3/Conv_output_0: 3e8bfe14
/layer2/layer2.3/Add_output_0: 3ec59cdf
/layer2/layer2.3/relu_2/Relu_output_0: 3eca1647
/layer3/layer3.0/conv1/Conv_output_0: 3ef6bf90
/layer3/layer3.0/relu/Relu_output_0: 3e1853a0
/layer3/layer3.0/conv2/Conv_output_0: 3e5166e7
/layer3/layer3.0/relu_1/Relu_output_0: 3e45a6e6
/layer3/layer3.0/conv3/Conv_output_0: 3e54e549
/layer3/layer3.0/downsample/downsample.0/Conv_output_0: 3e1b8c72
/layer3/layer3.0/Add_output_0: 3eb7fa18
/layer3/layer3.0/relu_2/Relu_output_0: 3e41284d
/layer3/layer3.1/conv1/Conv_output_0: 3e2a6375
/layer3/layer3.1/relu/Relu_output_0: 3df355f4
/layer3/layer3.1/conv2/Conv_output_0: 3e8d1ed3
/layer3/layer3.1/relu_1/Relu_output_0: 3e2213bf
/layer3/layer3.1/conv3/Conv_output_0: 3e818bb4
/layer3/layer3.1/Add_output_0: 3e2e1bea
/layer3/layer3.1/relu_2/Relu_output_0: 3e2e1bea
/layer3/layer3.2/conv1/Conv_output_0: 3e474fbc
/layer3/layer3.2/relu/Relu_output_0: 3de9085c
/layer3/layer3.2/conv2/Conv_output_0: 3e77210a
/layer3/layer3.2/relu_1/Relu_output_0: 3e2c381e
/layer3/layer3.2/conv3/Conv_output_0: 3e1589be
/layer3/layer3.2/Add_output_0: 3e156fee
/layer3/layer3.2/relu_2/Relu_output_0: 3e0fe1c7
/layer3/layer3.3/conv1/Conv_output_0: 3e436407
/layer3/layer3.3/relu/Relu_output_0: 3dd821d4
/layer3/layer3.3/conv2/Conv_output_0: 3e528641
/layer3/layer3.3/relu_1/Relu_output_0: 3e09fb38
/layer3/layer3.3/conv3/Conv_output_0: 3de3df1a
/layer3/layer3.3/Add_output_0: 3dfd6e6e
/layer3/layer3.3/relu_2/Relu_output_0: 3dfd6e6e
/layer3/layer3.4/conv1/Conv_output_0: 3e4e11d2
/layer3/layer3.4/relu/Relu_output_0: 3ddd51ce
/layer3/layer3.4/conv2/Conv_output_0: 3e6e7b23
/layer3/layer3.4/relu_1/Relu_output_0: 3e301cc6
/layer3/layer3.4/conv3/Conv_output_0: 3dfd2d6c
/layer3/layer3.4/Add_output_0: 3e0af248
/layer3/layer3.4/relu_2/Relu_output_0: 3dfa76e4
/layer3/layer3.5/conv1/Conv_output_0: 3e25183b
/layer3/layer3.5/relu/Relu_output_0: 3dbaf48d
/layer3/layer3.5/conv2/Conv_output_0: 3e024e15
/layer3/layer3.5/relu_1/Relu_output_0: 3dc840a5
/layer3/layer3.5/conv3/Conv_output_0: 3df5591f
/layer3/layer3.5/Add_output_0: 3e202679
/layer3/layer3.5/relu_2/Relu_output_0: 3e1ee945
/h1_PT_hd3/MaxPool_output_0: 3ebaadee
/h1_PT_hd3_conv/Conv_output_0: 3d74508a
/h1_PT_hd3_relu/Relu_output_0: 3d12fd04
/h2_PT_hd3/MaxPool_output_0: 3f040890
/h2_PT_hd3_conv/Conv_output_0: 3dfc991c
/h2_PT_hd3_relu/Relu_output_0: 3d394114
/h3_Cat_hd3_conv/Conv_output_0: 3dde7509
/h3_Cat_hd3_relu/Relu_output_0: 3d537a1e
/hd4_UT_hd3/Resize_output_0: 3dc4e413
/hd4_UT_hd3_conv/Conv_output_0: 3d3b5caa
/hd4_UT_hd3_relu/Relu_output_0: 3d42068e
/Concat_output_0: 3d3c5852
/conv3d_1/Conv_output_0: 3d63d71a
/relu3d_1/Relu_output_0: 3d675400
/h1_PT_hd2/MaxPool_output_0: 3ebaadee
/h1_PT_hd2_conv/Conv_output_0: 3d7d15c5
/h1_PT_hd2_relu/Relu_output_0: 3d3efea3
/h2_Cat_hd2_conv/Conv_output_0: 3db9bfdf
/h2_Cat_hd2_relu/Relu_output_0: 3d81f6d2
/hd3_UT_hd2/Resize_output_0: 3d1d97ef
/hd3_UT_hd2_conv/Conv_output_0: 3d579070
/hd3_UT_hd2_relu/Relu_output_0: 3d3bcdc5
/hd4_UT_hd2/Resize_output_0: 3dc4e413
/hd4_UT_hd2_conv/Conv_output_0: 3d6bb19d
/hd4_UT_hd2_relu/Relu_output_0: 3d238cdf
/Concat_1_output_0: 3d5e5f97
/conv2d_1/Conv_output_0: 3d72db7d
/relu2d_1/Relu_output_0: 3d6b2aa4
/h1_Cat_hd1_conv/Conv_output_0: 3dd2510c
/h1_Cat_hd1_relu/Relu_output_0: 3dd2466e
/hd2_UT_hd1/Resize_output_0: 3d1606b7
/hd2_UT_hd1_conv/Conv_output_0: 3d752d04
/hd2_UT_hd1_relu/Relu_output_0: 3d6800c4
/hd3_UT_hd1/Resize_output_0: 3d20ea45
/hd3_UT_hd1_conv/Conv_output_0: 3d14bd92
/hd3_UT_hd1_relu/Relu_output_0: 3cffe09a
/hd4_UT_hd1/Resize_output_0: 3dd12884
/hd4_UT_hd1_conv/Conv_output_0: 3d88aad9
/hd4_UT_hd1_relu/Relu_output_0: 3d3a1d9d
/Concat_2_output_0: 3d8491a9
/conv1d_1/Conv_output_0: 3d483e85
/relu1d_1/Relu_output_0: 3d4e511b
/hd1_UT_hd0/Resize_output_0: 3d088150
/hd1_UT_hd0_conv/Conv_output_0: 3d2a0742
/hd1_UT_hd0_relu/Relu_output_0: 3d2c4730
/hd2_UT_hd0/Resize_output_0: 3d241073
/hd2_UT_hd0_conv/Conv_output_0: 3d4939f7
/hd2_UT_hd0_relu/Relu_output_0: 3d4939f7
/hd3_UT_hd0/Resize_output_0: 3d13ce2f
/hd3_UT_hd0_conv/Conv_output_0: 3d12afea
/hd3_UT_hd0_relu/Relu_output_0: 3cfd6885
/hd4_UT_hd0/Resize_output_0: 3dd12884
/hd4_UT_hd0_conv/Conv_output_0: 3d419156
/hd4_UT_hd0_relu/Relu_output_0: 3d212c16
/Concat_3_output_0: 3d35cbd4
/conv1d_1_1/Conv_output_0: 3d57122f
/relu1d_1_1/Relu_output_0: 3d5ddc72
/outconv4/Conv_output_0: 3f00659d
/upscore4/Resize_output_0: 3eeb38d6
/outconv3/Conv_output_0: 3ee553c3
/upscore3/Resize_output_0: 3ee69aab
/outconv2/Conv_output_0: 3f0e191e
/upscore2/Resize_output_0: 3f0b3644
/outconv1/Conv_output_0: 3ec6d375
/upscore1/Resize_output_0: 3ec7e0b0
/outconv0/Conv_output_0: 3f2f8db0
out_d0: 3c010a14
out_d1: 3c01f3e7
out_d2: 3c010a14
out_d3: 3c010a14
out_d4: 3c010a14
